TRT-100300-MinMaxCalibration
images: 3c010204
/model.0/conv/Conv_output_0: 3eff0ee5
/model.0/act/Sigmoid_output_0: 3c010204
/model.0/act/Mul_output_0: 3ef791cc
/model.1/conv/Conv_output_0: 3fefd4fe
/model.1/act/Sigmoid_output_0: 3c010204
/model.1/act/Mul_output_0: 3fefd4fe
/model.2/cv1/conv/Conv_output_0: 3f46928d
/model.2/cv1/act/Sigmoid_output_0: 3c010204
/model.2/cv1/act/Mul_output_0: 3ea6d4f5
/model.2/Split_output_0: 3ea6d4f5
/model.2/Split_output_1: 3e09f5d8
/model.2/m.0/cv1/conv/Conv_output_0: 3ea658c8
/model.2/m.0/cv1/act/Sigmoid_output_0: 3c010204
/model.2/m.0/cv1/act/Mul_output_0: 3e375795
/model.2/m.0/cv2/conv/Conv_output_0: 3e75efdb
/model.2/m.0/cv2/act/Sigmoid_output_0: 3c010204
/model.2/m.0/cv2/act/Mul_output_0: 3e47f7b7
/model.2/m.0/Add_output_0: 3e6346cd
/model.2/Concat_output_0: 3ea6d4f5
/model.2/cv2/conv/Conv_output_0: 3e53d1d7
/model.2/cv2/act/Sigmoid_output_0: 3c010204
/model.2/cv2/act/Mul_output_0: 3e39f4ac
/model.3/conv/Conv_output_0: 3db7a8ee
/model.3/act/Sigmoid_output_0: 3c00f817
/model.3/act/Mul_output_0: 3d82c34a
/model.4/cv1/conv/Conv_output_0: 3d95e893
/model.4/cv1/act/Sigmoid_output_0: 3c00fadb
/model.4/cv1/act/Mul_output_0: 3d8808af
/model.4/Split_output_0: 3d8808af
/model.4/Split_output_1: 3d2cb77c
/model.4/m.0/cv1/conv/Conv_output_0: 3d67be6b
/model.4/m.0/cv1/act/Sigmoid_output_0: 3c008aec
/model.4/m.0/cv1/act/Mul_output_0: 3d34a6aa
/model.4/m.0/cv2/conv/Conv_output_0: 3d91fa2f
/model.4/m.0/cv2/act/Sigmoid_output_0: 3c00dff2
/model.4/m.0/cv2/act/Mul_output_0: 3d5d8577
/model.4/m.0/Add_output_0: 3d83e931
/model.4/m.1/cv1/conv/Conv_output_0: 3d47c51e
/model.4/m.1/cv1/act/Sigmoid_output_0: 3bfd7c04
/model.4/m.1/cv1/act/Mul_output_0: 3cff069d
/model.4/m.1/cv2/conv/Conv_output_0: 3da87cc3
/model.4/m.1/cv2/act/Sigmoid_output_0: 3c01010e
/model.4/m.1/cv2/act/Mul_output_0: 3da87b81
/model.4/m.1/Add_output_0: 3dbf6c67
/model.4/Concat_output_0: 3dbf6c67
/model.4/cv2/conv/Conv_output_0: 3d8527e6
/model.4/cv2/act/Sigmoid_output_0: 3c00af23
/model.4/cv2/act/Mul_output_0: 3d408cb6
/model.5/conv/Conv_output_0: 3d9270b1
/model.5/act/Sigmoid_output_0: 3c00a131
/model.5/act/Mul_output_0: 3d3b748e
/model.6/cv1/conv/Conv_output_0: 3dbe9148
/model.6/cv1/act/Sigmoid_output_0: 3c00fd80
/model.6/cv1/act/Mul_output_0: 3d8f6b4a
/model.6/Split_output_0: 3d8f6b4a
/model.6/Split_output_1: 3d29e399
/model.6/m.0/cv1/conv/Conv_output_0: 3d79ee75
/model.6/m.0/cv1/act/Sigmoid_output_0: 3c00a6f0
/model.6/m.0/cv1/act/Mul_output_0: 3d3d74f6
/model.6/m.0/cv2/conv/Conv_output_0: 3d841420
/model.6/m.0/cv2/act/Sigmoid_output_0: 3c00f8d4
/model.6/m.0/cv2/act/Mul_output_0: 3d840ab7
/model.6/m.0/Add_output_0: 3d857bb9
/model.6/m.1/cv1/conv/Conv_output_0: 3d781099
/model.6/m.1/cv1/act/Sigmoid_output_0: 3c006a1b
/model.6/m.1/cv1/act/Mul_output_0: 3d2ca02f
/model.6/m.1/cv2/conv/Conv_output_0: 3dd9fcd3
/model.6/m.1/cv2/act/Sigmoid_output_0: 3c010042
/model.6/m.1/cv2/act/Mul_output_0: 3d9e9314
/model.6/m.1/Add_output_0: 3da06ed4
/model.6/Concat_output_0: 3da06ed4
/model.6/cv2/conv/Conv_output_0: 3d6f0230
/model.6/cv2/act/Sigmoid_output_0: 3c00e2ba
/model.6/cv2/act/Mul_output_0: 3d604969
/model.7/conv/Conv_output_0: 3da5248f
/model.7/act/Sigmoid_output_0: 3c00ecb9
/model.7/act/Mul_output_0: 3d6cc74c
/model.8/cv1/conv/Conv_output_0: 3db83b3d
/model.8/cv1/act/Sigmoid_output_0: 3c010148
/model.8/cv1/act/Mul_output_0: 3dac97a4
/model.8/Split_output_0: 3dac97a4
/model.8/Split_output_1: 3d263066
/model.8/m.0/cv1/conv/Conv_output_0: 3d7efe13
/model.8/m.0/cv1/act/Sigmoid_output_0: 3bff05fc
/model.8/m.0/cv1/act/Mul_output_0: 3d0db43b
/model.8/m.0/cv2/conv/Conv_output_0: 3de98f77
/model.8/m.0/cv2/act/Sigmoid_output_0: 3c010200
/model.8/m.0/cv2/act/Mul_output_0: 3de98f70
/model.8/m.0/Add_output_0: 3de52cee
/model.8/Concat_output_0: 3de52cee
/model.8/cv2/conv/Conv_output_0: 3d87842e
/model.8/cv2/act/Sigmoid_output_0: 3c00d3f7
/model.8/cv2/act/Mul_output_0: 3d53bae5
/model.9/cv1/conv/Conv_output_0: 3d97eade
/model.9/cv1/act/Sigmoid_output_0: 3c00ff56
/model.9/cv1/act/Mul_output_0: 3d97e7b6
/model.9/m/MaxPool_output_0: 3d97e7b6
/model.9/m_1/MaxPool_output_0: 3d97e7b6
/model.9/m_2/MaxPool_output_0: 3d97e7b6
/model.9/Concat_output_0: 3d97e7b6
/model.9/cv2/conv/Conv_output_0: 3d901c36
/model.9/cv2/act/Sigmoid_output_0: 3c00aeb2
/model.9/cv2/act/Mul_output_0: 3d40601b
/model.10/Resize_output_0: 3d40601b
/model.11/Concat_output_0: 3d604969
/model.12/cv1/conv/Conv_output_0: 3da5bb21
/model.12/cv1/act/Sigmoid_output_0: 3c00fa32
/model.12/cv1/act/Mul_output_0: 3d86a366
/model.12/Split_output_0: 3d86a366
/model.12/Split_output_1: 3d670243
/model.12/m.0/cv1/conv/Conv_output_0: 3d8f4adb
/model.12/m.0/cv1/act/Sigmoid_output_0: 3c008e18
/model.12/m.0/cv1/act/Mul_output_0: 3d3589cd
/model.12/m.0/cv2/conv/Conv_output_0: 3d874eb4
/model.12/m.0/cv2/act/Sigmoid_output_0: 3c00fa81
/model.12/m.0/cv2/act/Mul_output_0: 3d8746d4
/model.12/Concat_output_0: 3d8746d4
/model.12/cv2/conv/Conv_output_0: 3d82ff88
/model.12/cv2/act/Sigmoid_output_0: 3c00f4f6
/model.12/cv2/act/Mul_output_0: 3d7c9da6
/model.13/Resize_output_0: 3d7c9da6
/model.14/Concat_output_0: 3d7c9da6
/model.15/cv1/conv/Conv_output_0: 3d660372
/model.15/cv1/act/Sigmoid_output_0: 3bfdb701
/model.15/cv1/act/Mul_output_0: 3d015057
/model.15/Split_output_0: 3d015057
/model.15/Split_output_1: 3cdc1c4e
/model.15/m.0/cv1/conv/Conv_output_0: 3d5594ec
/model.15/m.0/cv1/act/Sigmoid_output_0: 3bf97de8
/model.15/m.0/cv1/act/Mul_output_0: 3cd29ada
/model.15/m.0/cv2/conv/Conv_output_0: 3d4c598d
/model.15/m.0/cv2/act/Sigmoid_output_0: 3c00c79e
/model.15/m.0/cv2/act/Mul_output_0: 3d4bfd0c
/model.15/Concat_output_0: 3d4bfd0c
/model.15/cv2/conv/Conv_output_0: 3d8ab9ab
/model.15/cv2/act/Sigmoid_output_0: 3bfe6aaf
/model.15/cv2/act/Mul_output_0: 3d076c35
/model.16/conv/Conv_output_0: 3d5122d5
/model.22/cv2.0/cv2.0.0/conv/Conv_output_0: 3dbfc6cb
/model.22/cv3.0/cv3.0.0/conv/Conv_output_0: 3d8ed681
/model.16/act/Sigmoid_output_0: 3c00cebd
/model.22/cv2.0/cv2.0.0/act/Sigmoid_output_0: 3c004dae
/model.22/cv3.0/cv3.0.0/act/Sigmoid_output_0: 3c0056ce
/model.16/act/Mul_output_0: 3d5039bc
/model.22/cv2.0/cv2.0.0/act/Mul_output_0: 3d26f1e4
/model.22/cv3.0/cv3.0.0/act/Mul_output_0: 3d28aabc
/model.17/Concat_output_0: 3d7c9da6
/model.22/cv2.0/cv2.0.1/conv/Conv_output_0: 3e5011a3
/model.22/cv3.0/cv3.0.1/conv/Conv_output_0: 3e5a4bbd
/model.18/cv1/conv/Conv_output_0: 3d8a28bd
/model.22/cv2.0/cv2.0.1/act/Sigmoid_output_0: 3c010204
/model.22/cv3.0/cv3.0.1/act/Sigmoid_output_0: 3c010204
/model.18/cv1/act/Sigmoid_output_0: 3c00e4a6
/model.22/cv2.0/cv2.0.1/act/Mul_output_0: 3e5011a3
/model.22/cv3.0/cv3.0.1/act/Mul_output_0: 3e5a4bbd
/model.18/cv1/act/Mul_output_0: 3d62596d
/model.22/cv2.0/cv2.0.2/Conv_output_0: 3e10b469
/model.22/cv3.0/cv3.0.2/Conv_output_0: 3e87b6dc
/model.18/Split_output_0: 3d62596d
/model.18/Split_output_1: 3d282a0b
/model.22/Concat_output_0: 3e87b6dc
/model.18/m.0/cv1/conv/Conv_output_0: 3d43e7ef
/model.22/Reshape_output_0: 3e87b6dc
/model.18/m.0/cv1/act/Sigmoid_output_0: 3bfdfc01
/model.18/m.0/cv1/act/Mul_output_0: 3d038950
/model.18/m.0/cv2/conv/Conv_output_0: 3d8b8831
/model.18/m.0/cv2/act/Sigmoid_output_0: 3c00fc48
/model.18/m.0/cv2/act/Mul_output_0: 3d8b81fd
/model.18/Concat_output_0: 3d8b81fd
/model.18/cv2/conv/Conv_output_0: 3e0d6a20
/model.18/cv2/act/Sigmoid_output_0: 3c006e47
/model.18/cv2/act/Mul_output_0: 3d2d8b3e
/model.19/conv/Conv_output_0: 3d8d296b
/model.22/cv2.1/cv2.1.0/conv/Conv_output_0: 3da128c6
/model.22/cv3.1/cv3.1.0/conv/Conv_output_0: 3d94290e
/model.19/act/Sigmoid_output_0: 3c00ee48
/model.22/cv2.1/cv2.1.0/act/Sigmoid_output_0: 3c00eb12
/model.22/cv3.1/cv3.1.0/act/Sigmoid_output_0: 3c00decb
/model.19/act/Mul_output_0: 3d6f3b64
/model.22/cv2.1/cv2.1.0/act/Mul_output_0: 3d6a5a5b
/model.22/cv3.1/cv3.1.0/act/Mul_output_0: 3d5c71ac
/model.20/Concat_output_0: 3d6f3b64
/model.22/cv2.1/cv2.1.1/conv/Conv_output_0: 3e497c16
/model.22/cv3.1/cv3.1.1/conv/Conv_output_0: 3e95e9ab
/model.21/cv1/conv/Conv_output_0: 3d992cde
/model.22/cv2.1/cv2.1.1/act/Sigmoid_output_0: 3c010204
/model.22/cv3.1/cv3.1.1/act/Sigmoid_output_0: 3c010204
/model.21/cv1/act/Sigmoid_output_0: 3c00f6ea
/model.22/cv2.1/cv2.1.1/act/Mul_output_0: 3e497c16
/model.22/cv3.1/cv3.1.1/act/Mul_output_0: 3e8e8b06
/model.21/cv1/act/Mul_output_0: 3d80ed58
/model.22/cv2.1/cv2.1.2/Conv_output_0: 3e02683c
/model.22/cv3.1/cv3.1.2/Conv_output_0: 3eba5507
/model.21/Split_output_0: 3d80ed58
/model.21/Split_output_1: 3d491c62
/model.22/Concat_1_output_0: 3eba5507
/model.21/m.0/cv1/conv/Conv_output_0: 3d60a051
/model.22/Reshape_1_output_0: 3eba5507
/model.21/m.0/cv1/act/Sigmoid_output_0: 3c005fb2
/model.21/m.0/cv1/act/Mul_output_0: 3d2a6fc4
/model.21/m.0/cv2/conv/Conv_output_0: 3d859074
/model.21/m.0/cv2/act/Sigmoid_output_0: 3c00f8c6
/model.21/m.0/cv2/act/Mul_output_0: 3d83f20b
/model.21/Concat_output_0: 3d83f20b
/model.21/cv2/conv/Conv_output_0: 3dfb141f
/model.21/cv2/act/Sigmoid_output_0: 3c00bf78
/model.21/cv2/act/Mul_output_0: 3d47b8a9
/model.22/cv2.2/cv2.2.0/conv/Conv_output_0: 3d9ffab6
/model.22/cv3.2/cv3.2.0/conv/Conv_output_0: 3da959e4
/model.22/cv2.2/cv2.2.0/act/Sigmoid_output_0: 3c010065
/model.22/cv3.2/cv3.2.0/act/Sigmoid_output_0: 3c00ce69
/model.22/cv2.2/cv2.2.0/act/Mul_output_0: 3d9ff8b3
/model.22/cv3.2/cv3.2.0/act/Mul_output_0: 3d5003e0
/model.22/cv2.2/cv2.2.1/conv/Conv_output_0: 3e2b805d
/model.22/cv3.2/cv3.2.1/conv/Conv_output_0: 3e92d7d5
/model.22/cv2.2/cv2.2.1/act/Sigmoid_output_0: 3c010204
/model.22/cv3.2/cv3.2.1/act/Sigmoid_output_0: 3c010204
/model.22/cv2.2/cv2.2.1/act/Mul_output_0: 3e2b805d
/model.22/cv3.2/cv3.2.1/act/Mul_output_0: 3e77abec
/model.22/cv2.2/cv2.2.2/Conv_output_0: 3dc7f8ee
/model.22/cv3.2/cv3.2.2/Conv_output_0: 3e98e421
/model.22/Concat_2_output_0: 3e98e421
/model.22/Reshape_2_output_0: 3e98e421
/model.22/Concat_3_output_0: 3eba5507
/model.22/Split_output_0: 3e10b469
/model.22/Split_output_1: 3eba5507
/model.22/dfl/Reshape_output_0: 3e10b469
/model.22/Sigmoid_output_0: 3acf5897
/model.22/dfl/Transpose_output_0: 3e10b469
/model.22/dfl/Softmax_output: 3bf84ea9
/model.22/dfl/Softmax_output_0: 3bf84ea9
/model.22/dfl/conv/Conv_output_0: 3de72ae1
/model.22/dfl/Reshape_1_output_0: 3de72ae1
/model.22/Concat_4_output_0: 3f2089d8
/model.22/Add_1_output_0: 3f263719
/model.22/Constant_12_output_0_output: 3e810204
/model.22/Div_1_output_0: 3f2089d8
ONNXTRT_Broadcast_output: 3c810204
/model.22/Sub_output_0: 3f1fd014
output0: 40a322a3
/model.22/Add_2_output_0: 3fa089d8
/model.22/Mul_2_output_0: 40a322a3
/model.22/Sub_1_output_0: 3e523c30
ONNXTRT_Broadcast_95_output: 3e810204
/model.22/Slice_1_output_0: 3dd8605d
/model.22/Constant_10_output_0_output: 3f204081
/model.22/Constant_11_output_0_output: 3c810204
/model.22/Constant_9_output_0_output: 3f204081
/model.22/Slice_output_0: 3de72ae1
